11101111001000000111000100101001
10011010111011100001011100011100
00111100000111101100001110101110
01110001001100110000010011100010
00110001001101111111100100010010
11110100010111110101011101000101
11000100010100110011010001110110
01110101111100000100011101100111
00011100010000101100111011011101
00100111111010011101101100110000
01011010110111001001000000010011
00101110111000001110111111100011
11010000001101110010100100001101
10100001011100000010011011101101
01000000001100001110111001101100
11101101001100010111101111110010
10010011111100110101110110010011
01101111000010111111010011001111
10111010000001110011010010100101
01111001000101001110010111110000
11110101111010110011110100110000
01100001111110010000111100100001
00000011001101100010010010010100
11100000110010011110000011111110
00101101011111110100001000100001
01111100000001000100111000000010
11000001010011110011001011110000
10100000101101011110011101011110
00111111000100001011011110111110
01111100000110011101101000101001
00101001011111101011111000010000
01110010111110100101100111110000
