10010011100111100001101001111001
10011011001000001101111001110011
10111001011111000010111110100010
10100011111101110010010000111001
00110110100100111101100100011001
10011100010001011101000000110100
11011111010010100011110010010011
01111010111010010110011110100000
01001111011111111010011100000011
10010111010001100111100100010111
11000011100111000010100111110110
10011111011101110100001110101110
10110001110101110001100110110001
01011011010111000010111010010001
01110001010100011100110000000010
00001001111010101110110110101010
10101111001110010111010011100010
00010000000011000111111010010100
00111011011101110101100101111111
01110111101111000111011111000010
11100111011110110000011111111001
01010000010010100010111101100011
11101100111101110100011110101001
10110001100110011001110011011100
01000110010110101010110101101100
01111010010110011111001110011010
11001100010000100111011010101100
11010110010101110001011110011010
00101010010000100011101101110110
01111011100111101011000111110110
01100001011101001110001000110001
01110100100111010101001000010110
