11000111000000111010011111011010
10111001000011111110011001100111
11001010011110011001000111001010
01111100011101011111001011111001
00010011011101001011100111111001
00110110110010110110000001110001
10100000100111000010010110010111
01001011111111100010101111100101
10111001010101111001100110010110
11000000000110100110101011001111
00100100100100001001011100110111
10100101011001010011100110101001
11110011100101101010110111111101
11110100011100000101010011110011
01100111011101110111011101010110
11100011010111000111000011101111
10010111011111001101011110110110
11010010010001110111011110010111
01111100110001100010111000001100
00110100111101111010011111001101
10010011000110110111011000101010
10100000111101000111110110111101
00000101101001100010010000101101
01100101001011111101001111011001
01001110011000010011001001111101
10111001101101010010011101101111
10110111011110011001011110111011
01100001011001110100010011101001
01011100110001100111011101100010
10010011100110011110110101100101
11011001001011011001110000101011
11011101110000011011100101110101
