10111011001100010001001011111111
11111010011100100000111011001100
00110001001100010000111111111011
11100001111000111111010111100110
01010010000101011010000100001011
01100001011110011010001000101110
10100000001000100001000011110010
11010011001000011101011100100100
00100101010000110000000000100001
01100100110000100011110100100010
00001111001000110000111111111101
11000010111001010011000100010111
11010100000001111001011000110100
01001101011010011101010101000000
10111111110101001011000010111011
11011001000100100011111011001110
11100100000000111010110111010010
11101110110111011101001111011110
11111101111001111100110010100001
00101110001111111011011111101001
10101101001110100000000100010000
00100000001100101101110111101111
11110000000000111100000011000010
00010001001010011010000100101100
10011011000110100001111011101110
11111110010000110100101100001011
01110011010000010100010011100010
11110001110100011111001001010001
00001100110100011101111111001001
01101101111110101100110100101100
11011001111100001100000100001110
01011001011011010010110001001110
