10010011100110011101101100001111
10111001011111000011001001110010
00001011010011001110101111101101
10110000110001110010001101110110
11111100100100001010000110101001
10111011011101001001100100111101
11001111000110111111111010101110
01111010001110011111111010011101
11100010110111110001010010101101
10010110000100010111100101001101
00110000101011010000100101000010
11001111111001110010011110101111
11011100110001110001110010111110
01111001011110010000110111110010
00110001011111111001100100000000
10111011011111000001110011001001
10101001111011010010111111001111
10101111111010100000101010010011
11001011001101110010100101111101
01111101001111000010000011011011
11100111001110011011011110011001
01101001011110101110110111101101
00000000110101001011011011001101
10100001001110011001100110101111
00011111000111001001101100000000
01111010011111100000011010011001
00011001010101100100001111101101
10010011101101110001100110111101
00001010000100111110111001110010
01111100101110100010001011110000
10011010010111011100011111101111
01110010000111010100101001110000
