10100111101011100111101101111001
10100000000111011010011001100111
11001010011110101111000110011101
00011110010001111101011101110010
00101110101001011111101011111100
10100100000001101110101101010011
10110011111010100010011110010101
01111001001110010010000110010011
00000011000001110000010110111001
10110110111111100010100101011011
00011010101010011101010101010101
11000000011101111110000110101101
00100101100101110100100110111001
01010110001010011101001111010010
01110111011101011001100101010100
11100000011110110111111000000101
10011100100100000011001111000111
11001111001010110101110110010011
11011101001101110111111001001100
01110000001011000100111111010001
11110110101000000000011111001010
01111001011110011101011111001101
01110100000001110101011111000010
10010110100110011011110110010101
01110001011111011001010001100010
01111010011110010111001010101010
11011100001100010000010010011101
10010001101000110011101000011101
01111101111111111010011000100111
01111100110110010010011010100010
10111011011011100100110111100001
01110000100110010111000101110110
