11100111000101110111011101101001
10011001101000011011011101100111
01101011011001011110001010111001
01110111111001010001001011001001
11100000111001101111101010010011
01110100011110100010000000000010
10011011100110111110011110100111
01011011101111011101110001010101
10101001010001110000101110010101
10110000001110010100100110011100
01011110101010101010001100100001
11011100010011101100101010011100
11100110100101110000101111011001
11110110001100110010000111011011
01101111011101000111001111101101
11001101011110110110000110101001
10010010101000011100010010010110
01111100011110010110011110100111
00001101111001010100000010011001
01110101111101001100011000100011
11010111110110100111010100101110
01010001001011110011111010010010
00110101110100010101011011100001
01110010110111011010000000001001
01111101011111100111011101111110
11101001001011101011010101110001
10100110001110101010011010011001
11110001011100111110101110101010
01110011100101110111011100110111
01100010100110010001110001110111
10011111011110111010111110010101
11101111101011110101101101110111
