11100001010000000001110100000001
00001101010011100000111100110001
11001111011110011110110110010100
00110001001101110100011111010110
01100111001001111111110001001101
00010110000100001111011101100111
00000101111101000011000100110100
11111100110100000001011111000111
00100110000101001010111000000000
11110001011111010100111000000001
01010100111011111010011000000010
11101111011101110001010111100010
11100000111101111111101111110011
10111101010000010000001000010111
01110011111111110011011001111111
10101101000011000111100110111010
00000100001100010111010010101110
11101111110111110011011110010010
11110000001001111111000000001111
01010001101000111111011110111101
11100100011110010100010000110001
00000011101101000100101001000011
00010100000001110011011111100010
11110110100110011001010000101111
01111110001111000001111101110000
00101101100100010111110000101111
00000010010100000000010000000001
11101111000101001110011100101100
01011100111001010100001000011111
00111001110010110000001100000100
10011001010001001110110111101110
01001100001011111110111000100000
