11001111110101110010011111100000
11101001001111001110110100110100
01001100011100111010101111001001
01110110101100010001001111111001
11001111111000011001111011001101
00111110011110011100101101001101
10011001100110111111010110011111
00011100000001011100100100101011
11011001111001110011111110010000
11111111101010010110100110110000
01110010101100101001010100000111
11000100010000000011110010100010
11011111100100011001000111001100
00100010010101001101100111011001
11110110001101000101001100011001
10110010011110010100101000011001
11110100001100101001111111111111
11111010110100100110011111000011
00101110100101101111100111101010
11110011101001101001011100001011
10011101111010100111000101001101
00111101011010010000111010011001
10011111101000000010011111101101
01010000011000101001001011111010
00001010001100000010011001111100
11001001111111101111010100101111
11100101011010011001011110101101
00000011010001010100100111101010
01100011110101000100001000110001
10110100110110011100100101111111
10011101000010011100011111110000
11011100010111101111100101110010
